TRT-7201-EntropyCalibration
input.1: 3c010a14
804: 3c2bc75d
432: 3c16645c
433: 3bb66d00
807: 3b34643a
810: 3b6dcc49
438: 3b7b5d57
813: 3b8c98e9
441: 3b66518f
816: 3b5b7d09
819: 3bc02823
446: 3bc953a0
450: 3bc9e85f
452: 3bc9e85f
453: 3b883866
454: 3bc9e85f
822: 3b6539b9
457: 3b64a61c
825: 3b942d9c
828: 3b85a769
462: 3b876365
466: 3b883866
468: 3b883866
469: 3b341eba
470: 3b883866
831: 3b6dc0cd
473: 3b667e55
834: 3bf4e390
837: 3bf46014
478: 3bbc4517
482: 3b9c3955
484: 3b9c3955
485: 3b9ed50c
486: 3b7b8f84
840: 3b7c074c
489: 3b762981
843: 3be9fd30
846: 3c1a20d8
494: 3bf1c5b6
498: 3bafcc5c
500: 3bafcc5c
849: 3b9d7b9c
852: 3b9b8f74
505: 3b8b651b
855: 3b844b2f
508: 3b2d5a06
858: 3c249891
861: 3bcfa344
513: 3bb7a491
517: 3bbb75d1
519: 3bbb75d1
520: 3ba48e55
521: 3b8926f0
864: 3b733403
524: 3b690b3c
867: 3b9c2946
870: 3b8f540f
529: 3b8f540f
533: 3bbf470f
535: 3bbf470f
536: 3b92d5b8
537: 3b8f03de
873: 3b66b18e
540: 3b34e507
876: 3bd4c876
879: 3be7110d
545: 3b9c6f7c
549: 3b9a408d
551: 3b9a408d
552: 3bab4838
553: 3ba4718c
882: 3b8ff697
556: 3b476516
885: 3c08ba6f
888: 3bfc622b
561: 3bb7c756
565: 3bba20f6
567: 3bba20f6
568: 3bbf8447
569: 3baf364d
891: 3b9448a4
572: 3b4bb139
894: 3c0ded6c
897: 3c046d63
577: 3bc4665d
581: 3bc560b6
583: 3bc560b6
584: 3b966ff9
585: 3bbdfe67
900: 3b895194
588: 3b498225
903: 3bff9304
906: 3bfb8787
593: 3b87d95a
597: 3b8f9788
599: 3b8f9788
600: 3b939423
601: 3b947b47
909: 3ba124b5
604: 3b55aa3c
912: 3c0ceb8a
915: 3c17e242
609: 3ba9c907
613: 3ba9c907
615: 3ba9c907
616: 3b9a30ed
617: 3ba5d8c2
918: 3b97f0e4
620: 3b626b69
921: 3c1244ea
924: 3c2884c6
625: 3b94c13f
629: 3b9e8262
631: 3b9e8262
927: 3bbf7cd3
930: 3bca5c5b
636: 3b814130
933: 3baa92e1
639: 3b0baea4
936: 3c029f6a
939: 3bdeee08
644: 3b4b4002
648: 3b7d2601
650: 3b7d2601
651: 3b529bf2
652: 3b7e023f
942: 3b82c616
655: 3b06a8ed
945: 3bef047d
948: 3bcab145
660: 3b665071
664: 3b51028f
666: 3b51028f
667: 3b4e21aa
668: 3b65ea44
951: 3b72060c
671: 3b2d1011
954: 3be8d30d
957: 3bd7a823
676: 3b5babaa
680: 3b585dba
682: 3b585dba
683: 3b515470
684: 3b5b88bc
960: 3b81aa47
687: 3b1329f7
963: 3c0551e2
966: 3c01b10f
692: 3b7cf2da
696: 3b6be038
698: 3b6be038
701: 3b6939bf
702: 3aee4eaa
703: 3bc2403c
704: 3b5b726d
705: 3bcd4f70
707: 3c0ac85a
709: 3bb55cb1
969: 3c50f724
712: 3c03ce32
972: 3bae0e44
715: 3bd2b7a7
975: 3c4cec4b
718: 3c2a232b
978: 3d0b2f43
721: 3cbcf8f2
722: 3d710269
723: 3d5b9ee4
724: 3d710269
725: 3ad7c149
728: 3ad7c149
731: 3d710269
(Unnamed Layer* 210) [Shuffle]_output: 3d710269
(Unnamed Layer* 211) [Softmax]_output: 3b9a51ad
734: 3b9a51ad
(Unnamed Layer* 214) [Shuffle]_output: 3d61d1a3
736: 3d225fb2
737: 3d225fb2
739: 3d225fb2
981: 3c18b6d7
742: 3bcda098
984: 3bcd9eb1
745: 3b3c0ddb
987: 3c0d0c38
748: 3b9fb31e
990: 3d2961b1
751: 3cb9c1ff
752: 3d59a0e6
753: 3d5a6908
754: 3d59951f
755: 3a136e3d
758: 3a136e3d
761: 3d59951f
(Unnamed Layer* 237) [Shuffle]_output: 3d59951f
(Unnamed Layer* 238) [Softmax]_output: 3b9ed660
764: 3b9ed660
(Unnamed Layer* 241) [Shuffle]_output: 3d61d1a3
766: 3d028d2d
767: 3d028d2d
769: 3d028d2d
993: 3bc1fb27
772: 3ba9a3ea
996: 3b713346
775: 3b0df498
999: 3bd36c00
778: 3b5b790e
1002: 3d5b231f
781: 3cb49715
782: 3d2819ff
783: 3d2c310e
784: 3d26b0a4
785: 3a0f4e88
788: 3a0f4e88
791: 3d26b0a4
(Unnamed Layer* 264) [Shuffle]_output: 3d26b0a4
(Unnamed Layer* 265) [Softmax]_output: 3b051d63
794: 3b051d63
(Unnamed Layer* 268) [Shuffle]_output: 3d61d1a3
796: 3cdfe9df
797: 3cdfe9df
799: 3cdfe9df
