TRT-7201-EntropyCalibration
images: 3c010a14
127: 3c7fb6aa
129: 3c79ec7a
130: 3e109797
132: 3dd57f1d
133: 3d4bb166
135: 3c1f188e
136: 3d14e375
138: 3cb7d4ca
139: 3d158eaf
142: 3d53c94e
143: 3d628152
145: 3d1f1415
147: 3d4707fb
149: 3c5fa90e
150: 3d209f08
152: 3ca500fb
153: 3c340555
155: 3c0c4099
156: 3d122ce3
158: 3d0e544a
159: 3cdd8ae9
162: 3c8a9820
163: 3cf3085f
165: 3c802d91
166: 3cd04b32
169: 3cb06f4f
170: 3d068bdc
172: 3cd2925b
173: 3d25c831
176: 3d25e3c3
177: 3d28e748
179: 3c622f3e
181: 3d5193c1
183: 3c80c0a5
184: 3d2db50d
186: 3cb31e04
187: 3cc77fef
189: 3c084596
190: 3d37af47
192: 3cb23edd
193: 3d16096d
196: 3ca3d3d4
197: 3d459c32
199: 3cc021f7
200: 3d310cf5
203: 3d29d6d7
204: 3d56bfc5
206: 3c8fdd33
207: 3d9fa8b2
210: 3d82da12
211: 3d2eabf1
213: 3d0052cd
215: 3d60773f
217: 3c8863c2
218: 3d824921
220: 3cd3bda6
221: 3d4a4e76
223: 3d27ad3d
224: 3d63a75f
225: 3d62754f
226: 3d85c0b9
228: 3d748ce2
230: 3c914f59
231: 3d87504b
233: 3cea1a9f
234: 3d82a532
236: 3d0160ad
237: 3d899a78
239: 3d008d92
240: 3d684027
242: 3c8fae36
244: 3da4c706
246: 3d132d2a
247: 3ddc0e0d
249: 3d121dac
254: 3d121dac
256: 3d89f8b5
258: 3cb4bc8f
259: 3d99c69c
261: 3cc242e4
262: 3d849480
264: 3c903159
265: 3dad7485
267: 3cd19a0c
269: 3dcdacf2
271: 3d2762b3
272: 3db9ec9d
274: 3d939d64
279: 3d939d64
281: 3d792d77
283: 3c51bc3e
284: 3d79b464
286: 3ce6fb60
287: 3dabf5ba
289: 3d43c5fa
290: 3db89991
292: 3dbde1ee
294: 3e94e3d9
296: 3e17bb67
297: 3ddde51e
299: 3d927b29
301: 3dbd7038
303: 3d263370
304: 3d855c72
306: 3cd2c9ee
307: 3df7053a
309: 3d940b3d
310: 3de2fb0f
312: 3e0981cd
314: 3e7467dd
316: 3dc66f36
317: 3dda066e
319: 3d687ee3
321: 3dc95dae
323: 3d3fa7c1
324: 3deadc04
326: 3d9422af
327: 3e134be9
329: 3dc0ec32
330: 3dcbb8e7
332: 3dbfaee9
334: 3e130d3f
336: 3d91ca8c
337: 3e7d5e91
output: 3e7d5e91
357: 3eb2f27a
376: 3eb2f27a
377: 3e8ccce7
396: 3e8ccce7
